custom_quantize_layers:
    /model.0/act/Mul_output_0: float16
    /model.1/conv/Conv_output_0: float16
    /model.1/act/Mul_output_0: float16
    /model.2/cv1/conv/Conv_output_0: float16
    /model.2/cv1/act/Mul_output_0: float16
    /model.2/Split_output_0: float16
    /model.2/Concat_output_0: float16
    /model.2/Split_output_1: float16
    /model.2/m.0/cv1/conv/Conv_output_0: float16
    /model.2/m.0/Add_output_0: float16
    /model.2/m.0/cv1/act/Mul_output_0: float16
    /model.2/m.0/cv2/conv/Conv_output_0: float16
    /model.2/m.0/cv2/act/Mul_output_0: float16
    /model.2/cv2/conv/Conv_output_0: float16
    /model.2/cv2/act/Mul_output_0: float16
    /model.3/conv/Conv_output_0: float16
    /model.3/act/Mul_output_0: float16
    /model.4/cv1/conv/Conv_output_0: float16
    /model.4/Split_output_0: float16
    /model.4/Concat_output_0: float16
    /model.4/m.0/cv2/act/Mul_output_0: float16
    /model.4/m.0/Add_output_0: float16
    /model.4/m.1/cv2/act/Mul_output_0: float16
    /model.4/m.1/Add_output_0: float16
    /model.6/Split_output_0: float16
    /model.6/Concat_output_0: float16
    /model.6/m.1/cv2/act/Mul_output_0: float16
    /model.6/m.1/Add_output_0: float16
    /model.6/cv2/conv/Conv_output_0: float16
    /model.8/Split_output_0: float16
    /model.8/Concat_output_0: float16
    /model.8/m.0/cv2/act/Mul_output_0: float16
    /model.8/m.0/Add_output_0: float16
    /model.8/cv2/conv/Conv_output_0: float16
    /model.15/m.0/cv2/act/Mul_output_0: float16
    /model.15/Concat_output_0: float16
    /model.15/cv2/conv/Conv_output_0: float16
    /model.18/m.0/cv2/act/Mul_output_0: float16
    /model.18/Concat_output_0: float16
    /model.21/m.0/cv2/act/Mul_output_0: float16
    /model.21/Concat_output_0: float16
    /model.22/cv2.2/cv2.2.0/act/Mul_output_0: float16
    /model.22/cv2.2/cv2.2.1/conv/Conv_output_0: float16
    /model.22/cv2.2/cv2.2.1/act/Mul_output_0: float16
    /model.22/cv2.2/cv2.2.2/Conv_output_0: float16
    /model.22/cv3.2/cv3.2.0/act/Mul_output_0: float16
    /model.22/cv3.2/cv3.2.1/conv/Conv_output_0: float16
    /model.22/cv3.2/cv3.2.1/act/Mul_output_0: float16
    /model.22/cv3.2/cv3.2.2/Conv_output_0: float16
    /model.22/cv2.1/cv2.1.0/act/Mul_output_0: float16
    /model.22/cv2.1/cv2.1.1/conv/Conv_output_0: float16
    /model.22/cv2.1/cv2.1.1/act/Mul_output_0: float16
    /model.22/cv2.1/cv2.1.2/Conv_output_0: float16
    /model.22/cv3.1/cv3.1.1/act/Mul_output_0: float16
    /model.22/cv3.1/cv3.1.2/Conv_output_0: float16
    /model.22/cv2.0/cv2.0.1/act/Mul_output_0: float16
    /model.22/cv2.0/cv2.0.2/Conv_output_0: float16
    /model.22/cv3.0/cv3.0.1/act/Mul_output_0: float16
    /model.22/cv3.0/cv3.0.2/Conv_output_0: float16
    /model.22/dfl/Softmax_output_0: float16
    /model.22/dfl/conv/Conv_output_0: float16
    /model.22/Concat_4_output_0_shape4_/model.22/Mul_2_before_conv: float16
    /model.22/Concat_4_output_0_shape4_/model.22/Mul_2: float16
    /model.22/Mul_2_output_0: float16
    /model.22/Sigmoid_output_0: float16
    /model.22/Concat_5_swap_concat_reshape_i1_out: float16
    output0_shape4: float16
    output0_int8: float16
    output0: float16
quantize_parameters:
    images:
        qtype: asymmetric_quantized
        qmethod: layer
        dtype: float32
        min:
        -   0.0
        max:
        -   1.0
        scale: []
        zero_point: []
        ori_min:
        -   0.0
        ori_max:
        -   1.0
    /model.0/conv/Conv_output_0:
        qtype: asymmetric_quantized
        qmethod: layer
        dtype: int8
        min:
        -   -43.70140075683594
        max:
        -   49.02081298828125
        scale:
        -   0.3636165244906556
        zero_point:
        -   -8
        ori_min:
        -   -43.70140075683594
        ori_max:
        -   49.02081298828125
    /model.0/act/Mul_output_0:
        qtype: asymmetric_quantized
        qmethod: layer
        dtype: int8
        min:
        -   -0.27846455574035645
        max:
        -   49.02081298828125
        scale:
        -   0.19333050017263376
        zero_point:
        -   -127
        ori_min:
        -   -0.27846455574035645
        ori_max:
        -   49.02081298828125
    /model.1/conv/Conv_output_0:
        qtype: asymmetric_quantized
        qmethod: layer
        dtype: int8
        min:
        -   -124.4521255493164
        max:
        -   116.85768127441406
        scale:
        -   0.9463129679361979
        zero_point:
        -   4
        ori_min:
        -   -124.4521255493164
        ori_max:
        -   116.85768127441406
    /model.1/act/Mul_output_0:
        qtype: asymmetric_quantized
        qmethod: layer
        dtype: int8
        min:
        -   -0.27846455574035645
        max:
        -   116.85768127441406
        scale:
        -   0.45935743462805656
        zero_point:
        -   -127
        ori_min:
        -   -0.27846455574035645
        ori_max:
        -   116.85768127441406
    /model.2/cv1/conv/Conv_output_0:
        qtype: asymmetric_quantized
        qmethod: layer
        dtype: int8
        min:
        -   -76.73301696777344
        max:
        -   24.16993522644043
        scale:
        -   0.39569785174201516
        zero_point:
        -   66
        ori_min:
        -   -76.73301696777344
        ori_max:
        -   24.16993522644043
    /model.2/cv1/act/Mul_output_0:
        qtype: asymmetric_quantized
        qmethod: layer
        dtype: int8
        min:
        -   -0.27846455574035645
        max:
        -   24.16993522644043
        scale:
        -   0.09587607757717956
        zero_point:
        -   -125
        ori_min:
        -   -0.27846455574035645
        ori_max:
        -   24.16993522644043
    /model.2/Split_output_0:
        qtype: asymmetric_quantized
        qmethod: layer
        dtype: int8
        min:
        -   -0.27846455574035645
        max:
        -   24.16993522644043
        scale:
        -   0.09587607757717956
        zero_point:
        -   -125
        ori_min:
        -   -0.27846455574035645
        ori_max:
        -   24.16993522644043
    /model.2/Split_output_1:
        qtype: asymmetric_quantized
        qmethod: layer
        dtype: int8
        min:
        -   -0.27846455574035645
        max:
        -   10.649524688720703
        scale:
        -   0.04285485978220023
        zero_point:
        -   -122
        ori_min:
        -   -0.27846455574035645
        ori_max:
        -   10.649524688720703
    /model.2/m.0/cv1/conv/Conv_output_0:
        qtype: asymmetric_quantized
        qmethod: layer
        dtype: int8
        min:
        -   -29.313671112060547
        max:
        -   24.834793090820312
        scale:
        -   0.21234691844267004
        zero_point:
        -   10
        ori_min:
        -   -29.313671112060547
        ori_max:
        -   24.834793090820312
    /model.2/m.0/cv1/act/Mul_output_0:
        qtype: asymmetric_quantized
        qmethod: layer
        dtype: int8
        min:
        -   -0.27846455574035645
        max:
        -   24.834793090820312
        scale:
        -   0.09848336331984577
        zero_point:
        -   -125
        ori_min:
        -   -0.27846455574035645
        ori_max:
        -   24.834793090820312
    /model.2/m.0/cv2/conv/Conv_output_0:
        qtype: asymmetric_quantized
        qmethod: layer
        dtype: int8
        min:
        -   -28.730295181274414
        max:
        -   22.797880172729492
        scale:
        -   0.20207127589805454
        zero_point:
        -   14
        ori_min:
        -   -28.730295181274414
        ori_max:
        -   22.797880172729492
    /model.2/m.0/cv2/act/Mul_output_0:
        qtype: asymmetric_quantized
        qmethod: layer
        dtype: int8
        min:
        -   -0.27846455574035645
        max:
        -   22.797880172729492
        scale:
        -   0.09049546952341117
        zero_point:
        -   -125
        ori_min:
        -   -0.27846455574035645
        ori_max:
        -   22.797880172729492
    /model.2/m.0/Add_output_0:
        qtype: asymmetric_quantized
        qmethod: layer
        dtype: int8
        min:
        -   -0.5569049119949341
        max:
        -   27.041807174682617
        scale:
        -   0.10823024347716687
        zero_point:
        -   -123
        ori_min:
        -   -0.5569049119949341
        ori_max:
        -   27.041807174682617
    /model.2/Concat_output_0:
        qtype: asymmetric_quantized
        qmethod: layer
        dtype: int8
        min:
        -   -0.5569049119949341
        max:
        -   27.041807174682617
        scale:
        -   0.10823024347716687
        zero_point:
        -   -123
        ori_min:
        -   -0.5569049119949341
        ori_max:
        -   27.041807174682617
    /model.2/cv2/conv/Conv_output_0:
        qtype: asymmetric_quantized
        qmethod: layer
        dtype: int8
        min:
        -   -25.71223258972168
        max:
        -   13.4307279586792
        scale:
        -   0.1535018060721603
        zero_point:
        -   40
        ori_min:
        -   -25.71223258972168
        ori_max:
        -   13.4307279586792
    /model.2/cv2/act/Mul_output_0:
        qtype: asymmetric_quantized
        qmethod: layer
        dtype: int8
        min:
        -   -0.27846455574035645
        max:
        -   13.430708885192871
        scale:
        -   0.05376146447424795
        zero_point:
        -   -123
        ori_min:
        -   -0.27846455574035645
        ori_max:
        -   13.430708885192871
    /model.3/conv/Conv_output_0:
        qtype: asymmetric_quantized
        qmethod: layer
        dtype: int8
        min:
        -   -8.935667037963867
        max:
        -   7.222698211669922
        scale:
        -   0.06336613823385799
        zero_point:
        -   13
        ori_min:
        -   -8.935667037963867
        ori_max:
        -   7.222698211669922
    /model.3/act/Mul_output_0:
        qtype: asymmetric_quantized
        qmethod: layer
        dtype: int8
        min:
        -   -0.27846455574035645
        max:
        -   7.21743106842041
        scale:
        -   0.029395669114355948
        zero_point:
        -   -119
        ori_min:
        -   -0.27846455574035645
        ori_max:
        -   7.21743106842041
    /model.4/cv1/conv/Conv_output_0:
        qtype: asymmetric_quantized
        qmethod: layer
        dtype: int8
        min:
        -   -10.346017837524414
        max:
        -   5.5523529052734375
        scale:
        -   0.06234655193254059
        zero_point:
        -   38
        ori_min:
        -   -10.346017837524414
        ori_max:
        -   5.5523529052734375
    /model.4/cv1/act/Mul_output_0:
        qtype: asymmetric_quantized
        qmethod: layer
        dtype: int8
        min:
        -   -0.27846455574035645
        max:
        -   5.530901908874512
        scale:
        -   0.022781829272999484
        zero_point:
        -   -116
        ori_min:
        -   -0.27846455574035645
        ori_max:
        -   5.530901908874512
    /model.4/Split_output_0:
        qtype: asymmetric_quantized
        qmethod: layer
        dtype: int8
        min:
        -   -0.27846455574035645
        max:
        -   5.530901908874512
        scale:
        -   0.022781829272999484
        zero_point:
        -   -116
        ori_min:
        -   -0.27846455574035645
        ori_max:
        -   5.530901908874512
    /model.4/Split_output_1:
        qtype: asymmetric_quantized
        qmethod: layer
        dtype: int8
        min:
        -   -0.27846455574035645
        max:
        -   4.1230692863464355
        scale:
        -   0.017260917027791343
        zero_point:
        -   -112
        ori_min:
        -   -0.27846455574035645
        ori_max:
        -   4.1230692863464355
    /model.4/m.0/cv1/conv/Conv_output_0:
        qtype: asymmetric_quantized
        qmethod: layer
        dtype: int8
        min:
        -   -7.516164302825928
        max:
        -   4.930505275726318
        scale:
        -   0.04881046893549901
        zero_point:
        -   26
        ori_min:
        -   -7.516164302825928
        ori_max:
        -   4.930505275726318
    /model.4/m.0/cv1/act/Mul_output_0:
        qtype: asymmetric_quantized
        qmethod: layer
        dtype: int8
        min:
        -   -0.27846455574035645
        max:
        -   4.895148277282715
        scale:
        -   0.020288677776561063
        zero_point:
        -   -114
        ori_min:
        -   -0.27846455574035645
        ori_max:
        -   4.895148277282715
    /model.4/m.0/cv2/conv/Conv_output_0:
        qtype: asymmetric_quantized
        qmethod: layer
        dtype: int8
        min:
        -   -6.783897399902344
        max:
        -   4.9118852615356445
        scale:
        -   0.045865814358580344
        zero_point:
        -   20
        ori_min:
        -   -6.783897399902344
        ori_max:
        -   4.9118852615356445
    /model.4/m.0/cv2/act/Mul_output_0:
        qtype: asymmetric_quantized
        qmethod: layer
        dtype: int8
        min:
        -   -0.27846455574035645
        max:
        -   4.876005172729492
        scale:
        -   0.02021360677831313
        zero_point:
        -   -114
        ori_min:
        -   -0.27846455574035645
        ori_max:
        -   4.876005172729492
    /model.4/m.0/Add_output_0:
        qtype: asymmetric_quantized
        qmethod: layer
        dtype: int8
        min:
        -   -0.556903600692749
        max:
        -   6.6009955406188965
        scale:
        -   0.02807019271102606
        zero_point:
        -   -108
        ori_min:
        -   -0.556903600692749
        ori_max:
        -   6.6009955406188965
    /model.4/m.1/cv1/conv/Conv_output_0:
        qtype: asymmetric_quantized
        qmethod: layer
        dtype: int8
        min:
        -   -7.194181442260742
        max:
        -   3.911134719848633
        scale:
        -   0.04355025945925245
        zero_point:
        -   37
        ori_min:
        -   -7.194181442260742
        ori_max:
        -   3.911134719848633
    /model.4/m.1/cv1/act/Mul_output_0:
        qtype: asymmetric_quantized
        qmethod: layer
        dtype: int8
        min:
        -   -0.27846455574035645
        max:
        -   3.834379196166992
        scale:
        -   0.01612879902708764
        zero_point:
        -   -111
        ori_min:
        -   -0.27846455574035645
        ori_max:
        -   3.834379196166992
    /model.4/m.1/cv2/conv/Conv_output_0:
        qtype: asymmetric_quantized
        qmethod: layer
        dtype: int8
        min:
        -   -9.596109390258789
        max:
        -   8.372697830200195
        scale:
        -   0.07046591066846661
        zero_point:
        -   8
        ori_min:
        -   -9.596109390258789
        ori_max:
        -   8.372697830200195
    /model.4/m.1/cv2/act/Mul_output_0:
        qtype: asymmetric_quantized
        qmethod: layer
        dtype: int8
        min:
        -   -0.27846455574035645
        max:
        -   8.370762825012207
        scale:
        -   0.033918538748049266
        zero_point:
        -   -120
        ori_min:
        -   -0.27846455574035645
        ori_max:
        -   8.370762825012207
    /model.4/m.1/Add_output_0:
        qtype: asymmetric_quantized
        qmethod: layer
        dtype: int8
        min:
        -   -0.8330810070037842
        max:
        -   10.275464057922363
        scale:
        -   0.04356292182323979
        zero_point:
        -   -109
        ori_min:
        -   -0.8330810070037842
        ori_max:
        -   10.275464057922363
    /model.4/Concat_output_0:
        qtype: asymmetric_quantized
        qmethod: layer
        dtype: int8
        min:
        -   -0.8330810070037842
        max:
        -   10.275464057922363
        scale:
        -   0.04356292182323979
        zero_point:
        -   -109
        ori_min:
        -   -0.8330810070037842
        ori_max:
        -   10.275464057922363
    /model.4/cv2/conv/Conv_output_0:
        qtype: asymmetric_quantized
        qmethod: layer
        dtype: int8
        min:
        -   -8.151808738708496
        max:
        -   6.446507453918457
        scale:
        -   0.0572482987946155
        zero_point:
        -   14
        ori_min:
        -   -8.151808738708496
        ori_max:
        -   6.446507453918457
    /model.4/cv2/act/Mul_output_0:
        qtype: asymmetric_quantized
        qmethod: layer
        dtype: int8
        min:
        -   -0.27846455574035645
        max:
        -   6.436298847198486
        scale:
        -   0.026332405501720953
        zero_point:
        -   -117
        ori_min:
        -   -0.27846455574035645
        ori_max:
        -   6.436298847198486
    /model.5/conv/Conv_output_0:
        qtype: asymmetric_quantized
        qmethod: layer
        dtype: int8
        min:
        -   -9.984014511108398
        max:
        -   5.21724271774292
        scale:
        -   0.05961277344647576
        zero_point:
        -   39
        ori_min:
        -   -9.984014511108398
        ori_max:
        -   5.21724271774292
    /model.5/act/Mul_output_0:
        qtype: asymmetric_quantized
        qmethod: layer
        dtype: int8
        min:
        -   -0.27846455574035645
        max:
        -   5.189106464385986
        scale:
        -   0.02144145498088762
        zero_point:
        -   -115
        ori_min:
        -   -0.27846455574035645
        ori_max:
        -   5.189106464385986
    /model.6/cv1/conv/Conv_output_0:
        qtype: asymmetric_quantized
        qmethod: layer
        dtype: int8
        min:
        -   -9.675479888916016
        max:
        -   6.3386383056640625
        scale:
        -   0.06280046350815717
        zero_point:
        -   26
        ori_min:
        -   -9.675479888916016
        ori_max:
        -   6.3386383056640625
    /model.6/cv1/act/Mul_output_0:
        qtype: asymmetric_quantized
        qmethod: layer
        dtype: int8
        min:
        -   -0.27846455574035645
        max:
        -   6.327459812164307
        scale:
        -   0.025905585756488873
        zero_point:
        -   -117
        ori_min:
        -   -0.27846455574035645
        ori_max:
        -   6.327459812164307
    /model.6/Split_output_0:
        qtype: asymmetric_quantized
        qmethod: layer
        dtype: int8
        min:
        -   -0.27846455574035645
        max:
        -   6.327459812164307
        scale:
        -   0.025905585756488873
        zero_point:
        -   -117
        ori_min:
        -   -0.27846455574035645
        ori_max:
        -   6.327459812164307
    /model.6/Split_output_1:
        qtype: asymmetric_quantized
        qmethod: layer
        dtype: int8
        min:
        -   -0.27846455574035645
        max:
        -   4.103277206420898
        scale:
        -   0.017183301028083353
        zero_point:
        -   -112
        ori_min:
        -   -0.27846455574035645
        ori_max:
        -   4.103277206420898
    /model.6/m.0/cv1/conv/Conv_output_0:
        qtype: asymmetric_quantized
        qmethod: layer
        dtype: int8
        min:
        -   -7.265546798706055
        max:
        -   6.282087326049805
        scale:
        -   0.0531279769598269
        zero_point:
        -   9
        ori_min:
        -   -7.265546798706055
        ori_max:
        -   6.282087326049805
    /model.6/m.0/cv1/act/Mul_output_0:
        qtype: asymmetric_quantized
        qmethod: layer
        dtype: int8
        min:
        -   -0.27846458554267883
        max:
        -   6.270365238189697
        scale:
        -   0.02568168558326422
        zero_point:
        -   -117
        ori_min:
        -   -0.27846458554267883
        ori_max:
        -   6.270365238189697
    /model.6/m.0/cv2/conv/Conv_output_0:
        qtype: asymmetric_quantized
        qmethod: layer
        dtype: int8
        min:
        -   -7.108486175537109
        max:
        -   7.904282093048096
        scale:
        -   0.05887360105327531
        zero_point:
        -   -7
        ori_min:
        -   -7.108486175537109
        ori_max:
        -   7.904282093048096
    /model.6/m.0/cv2/act/Mul_output_0:
        qtype: asymmetric_quantized
        qmethod: layer
        dtype: int8
        min:
        -   -0.27846455574035645
        max:
        -   7.901364803314209
        scale:
        -   0.032077762192370844
        zero_point:
        -   -119
        ori_min:
        -   -0.27846455574035645
        ori_max:
        -   7.901364803314209
    /model.6/m.0/Add_output_0:
        qtype: asymmetric_quantized
        qmethod: layer
        dtype: int8
        min:
        -   -0.5569257140159607
        max:
        -   8.930103302001953
        scale:
        -   0.03720403535693299
        zero_point:
        -   -113
        ori_min:
        -   -0.5569257140159607
        ori_max:
        -   8.930103302001953
    /model.6/m.1/cv1/conv/Conv_output_0:
        qtype: asymmetric_quantized
        qmethod: layer
        dtype: int8
        min:
        -   -7.651140213012695
        max:
        -   10.661592483520508
        scale:
        -   0.07181463802562041
        zero_point:
        -   -21
        ori_min:
        -   -7.651140213012695
        ori_max:
        -   10.661592483520508
    /model.6/m.1/cv1/act/Mul_output_0:
        qtype: asymmetric_quantized
        qmethod: layer
        dtype: int8
        min:
        -   -0.27846455574035645
        max:
        -   10.661341667175293
        scale:
        -   0.042901200874179014
        zero_point:
        -   -122
        ori_min:
        -   -0.27846455574035645
        ori_max:
        -   10.661341667175293
    /model.6/m.1/cv2/conv/Conv_output_0:
        qtype: asymmetric_quantized
        qmethod: layer
        dtype: int8
        min:
        -   -9.871554374694824
        max:
        -   24.06174659729004
        scale:
        -   0.1330717685175877
        zero_point:
        -   -54
        ori_min:
        -   -9.871554374694824
        ori_max:
        -   24.06174659729004
    /model.6/m.1/cv2/act/Mul_output_0:
        qtype: asymmetric_quantized
        qmethod: layer
        dtype: int8
        min:
        -   -0.27846455574035645
        max:
        -   24.06174659729004
        scale:
        -   0.09545180844325646
        zero_point:
        -   -125
        ori_min:
        -   -0.27846455574035645
        ori_max:
        -   24.06174659729004
    /model.6/m.1/Add_output_0:
        qtype: asymmetric_quantized
        qmethod: layer
        dtype: int8
        min:
        -   -0.8340878486633301
        max:
        -   23.928417205810547
        scale:
        -   0.09710786295872109
        zero_point:
        -   -119
        ori_min:
        -   -0.8340878486633301
        ori_max:
        -   23.928417205810547
    /model.6/Concat_output_0:
        qtype: asymmetric_quantized
        qmethod: layer
        dtype: int8
        min:
        -   -0.8340878486633301
        max:
        -   23.928417205810547
        scale:
        -   0.09710786295872109
        zero_point:
        -   -119
        ori_min:
        -   -0.8340878486633301
        ori_max:
        -   23.928417205810547
    /model.6/cv2/conv/Conv_output_0:
        qtype: asymmetric_quantized
        qmethod: layer
        dtype: int8
        min:
        -   -7.811269760131836
        max:
        -   7.765377998352051
        scale:
        -   0.06108489317052505
        zero_point:
        -   0
        ori_min:
        -   -7.811269760131836
        ori_max:
        -   7.765377998352051
    /model.6/cv2/act/Mul_output_0:
        qtype: asymmetric_quantized
        qmethod: layer
        dtype: int8
        min:
        -   -0.27846455574035645
        max:
        -   7.762085914611816
        scale:
        -   0.031531570471969306
        zero_point:
        -   -119
        ori_min:
        -   -0.27846455574035645
        ori_max:
        -   7.762085914611816
    /model.7/conv/Conv_output_0:
        qtype: asymmetric_quantized
        qmethod: layer
        dtype: int8
        min:
        -   -7.300063610076904
        max:
        -   7.239866733551025
        scale:
        -   0.05701933468089384
        zero_point:
        -   0
        ori_min:
        -   -7.300063610076904
        ori_max:
        -   7.239866733551025
    /model.7/act/Mul_output_0:
        qtype: asymmetric_quantized
        qmethod: layer
        dtype: int8
        min:
        -   -0.27846455574035645
        max:
        -   7.234676837921143
        scale:
        -   0.029463299582986272
        zero_point:
        -   -119
        ori_min:
        -   -0.27846455574035645
        ori_max:
        -   7.234676837921143
    /model.8/cv1/conv/Conv_output_0:
        qtype: asymmetric_quantized
        qmethod: layer
        dtype: int8
        min:
        -   -9.780038833618164
        max:
        -   10.017144203186035
        scale:
        -   0.07763601190903607
        zero_point:
        -   -2
        ori_min:
        -   -9.780038833618164
        ori_max:
        -   10.017144203186035
    /model.8/cv1/act/Mul_output_0:
        qtype: asymmetric_quantized
        qmethod: layer
        dtype: int8
        min:
        -   -0.27846455574035645
        max:
        -   10.016697883605957
        scale:
        -   0.04037318603665221
        zero_point:
        -   -121
        ori_min:
        -   -0.27846455574035645
        ori_max:
        -   10.016697883605957
    /model.8/Split_output_0:
        qtype: asymmetric_quantized
        qmethod: layer
        dtype: int8
        min:
        -   -0.27846455574035645
        max:
        -   10.016697883605957
        scale:
        -   0.04037318603665221
        zero_point:
        -   -121
        ori_min:
        -   -0.27846455574035645
        ori_max:
        -   10.016697883605957
    /model.8/Split_output_1:
        qtype: asymmetric_quantized
        qmethod: layer
        dtype: int8
        min:
        -   -0.27846455574035645
        max:
        -   5.288503170013428
        scale:
        -   0.021831245983348173
        zero_point:
        -   -115
        ori_min:
        -   -0.27846455574035645
        ori_max:
        -   5.288503170013428
    /model.8/m.0/cv1/conv/Conv_output_0:
        qtype: asymmetric_quantized
        qmethod: layer
        dtype: int8
        min:
        -   -9.787195205688477
        max:
        -   10.906270980834961
        scale:
        -   0.08115084779028799
        zero_point:
        -   -7
        ori_min:
        -   -9.787195205688477
        ori_max:
        -   10.906270980834961
    /model.8/m.0/cv1/act/Mul_output_0:
        qtype: asymmetric_quantized
        qmethod: layer
        dtype: int8
        min:
        -   -0.27846455574035645
        max:
        -   10.906070709228516
        scale:
        -   0.043860922607721065
        zero_point:
        -   -122
        ori_min:
        -   -0.27846455574035645
        ori_max:
        -   10.906070709228516
    /model.8/m.0/cv2/conv/Conv_output_0:
        qtype: asymmetric_quantized
        qmethod: layer
        dtype: int8
        min:
        -   -11.228761672973633
        max:
        -   13.20809268951416
        scale:
        -   0.09583080142152076
        zero_point:
        -   -11
        ori_min:
        -   -11.228761672973633
        ori_max:
        -   13.20809268951416
    /model.8/m.0/cv2/act/Mul_output_0:
        qtype: asymmetric_quantized
        qmethod: layer
        dtype: int8
        min:
        -   -0.27846455574035645
        max:
        -   13.20806884765625
        scale:
        -   0.05288836628782983
        zero_point:
        -   -123
        ori_min:
        -   -0.27846455574035645
        ori_max:
        -   13.20806884765625
    /model.8/m.0/Add_output_0:
        qtype: asymmetric_quantized
        qmethod: layer
        dtype: int8
        min:
        -   -0.5569055080413818
        max:
        -   12.972136497497559
        scale:
        -   0.053055066688388004
        zero_point:
        -   -118
        ori_min:
        -   -0.5569055080413818
        ori_max:
        -   12.972136497497559
    /model.8/Concat_output_0:
        qtype: asymmetric_quantized
        qmethod: layer
        dtype: int8
        min:
        -   -0.5569055080413818
        max:
        -   12.972136497497559
        scale:
        -   0.053055066688388004
        zero_point:
        -   -118
        ori_min:
        -   -0.5569055080413818
        ori_max:
        -   12.972136497497559
    /model.8/cv2/conv/Conv_output_0:
        qtype: asymmetric_quantized
        qmethod: layer
        dtype: int8
        min:
        -   -9.191168785095215
        max:
        -   6.1753926277160645
        scale:
        -   0.06026102514827952
        zero_point:
        -   25
        ori_min:
        -   -9.191168785095215
        ori_max:
        -   6.1753926277160645
    /model.8/cv2/act/Mul_output_0:
        qtype: asymmetric_quantized
        qmethod: layer
        dtype: int8
        min:
        -   -0.27846455574035645
        max:
        -   6.162574768066406
        scale:
        -   0.025258977740418676
        zero_point:
        -   -117
        ori_min:
        -   -0.27846455574035645
        ori_max:
        -   6.162574768066406
    /model.9/cv1/conv/Conv_output_0:
        qtype: asymmetric_quantized
        qmethod: layer
        dtype: int8
        min:
        -   -5.562790393829346
        max:
        -   5.9135613441467285
        scale:
        -   0.045005300933239505
        zero_point:
        -   -4
        ori_min:
        -   -5.562790393829346
        ori_max:
        -   5.9135613441467285
    /model.9/cv1/act/Mul_output_0:
        qtype: asymmetric_quantized
        qmethod: layer
        dtype: int8
        min:
        -   -0.27846449613571167
        max:
        -   5.897622585296631
        scale:
        -   0.024219949338950362
        zero_point:
        -   -117
        ori_min:
        -   -0.27846449613571167
        ori_max:
        -   5.897622585296631
    /model.9/m/MaxPool_output_0:
        qtype: asymmetric_quantized
        qmethod: layer
        dtype: int8
        min:
        -   -0.27846449613571167
        max:
        -   5.897622585296631
        scale:
        -   0.024219949338950362
        zero_point:
        -   -117
        ori_min:
        -   -0.22478820383548737
        ori_max:
        -   5.897622585296631
    /model.9/m_1/MaxPool_output_0:
        qtype: asymmetric_quantized
        qmethod: layer
        dtype: int8
        min:
        -   -0.27846449613571167
        max:
        -   5.897622585296631
        scale:
        -   0.024219949338950362
        zero_point:
        -   -117
        ori_min:
        -   -0.05390728637576103
        ori_max:
        -   5.897622585296631
    /model.9/m_2/MaxPool_output_0:
        qtype: asymmetric_quantized
        qmethod: layer
        dtype: int8
        min:
        -   -0.27846449613571167
        max:
        -   5.897622585296631
        scale:
        -   0.024219949338950362
        zero_point:
        -   -117
        ori_min:
        -   0.27802252769470215
        ori_max:
        -   5.897622585296631
    /model.9/Concat_output_0:
        qtype: asymmetric_quantized
        qmethod: layer
        dtype: int8
        min:
        -   -0.27846449613571167
        max:
        -   5.897622585296631
        scale:
        -   0.024219949338950362
        zero_point:
        -   -117
        ori_min:
        -   -0.27846449613571167
        ori_max:
        -   5.897622585296631
    /model.9/cv2/conv/Conv_output_0:
        qtype: asymmetric_quantized
        qmethod: layer
        dtype: int8
        min:
        -   -6.496817111968994
        max:
        -   4.666999340057373
        scale:
        -   0.043779672360887714
        zero_point:
        -   20
        ori_min:
        -   -6.496817111968994
        ori_max:
        -   4.666999340057373
    /model.9/cv2/act/Mul_output_0:
        qtype: asymmetric_quantized
        qmethod: layer
        dtype: int8
        min:
        -   -0.27846455574035645
        max:
        -   4.623536109924316
        scale:
        -   0.019223532022214402
        zero_point:
        -   -114
        ori_min:
        -   -0.27846455574035645
        ori_max:
        -   4.623536109924316
    /model.10/Resize_output_0:
        qtype: asymmetric_quantized
        qmethod: layer
        dtype: int8
        min:
        -   -0.27846455574035645
        max:
        -   4.623536109924316
        scale:
        -   0.019223532022214402
        zero_point:
        -   -114
        ori_min:
        -   -0.27846455574035645
        ori_max:
        -   4.623536109924316
    /model.11/Concat_output_0:
        qtype: asymmetric_quantized
        qmethod: layer
        dtype: int8
        min:
        -   -0.27846455574035645
        max:
        -   7.762085914611816
        scale:
        -   0.031531570471969306
        zero_point:
        -   -119
        ori_min:
        -   -0.27846455574035645
        ori_max:
        -   7.762085914611816
    /model.12/cv1/conv/Conv_output_0:
        qtype: asymmetric_quantized
        qmethod: layer
        dtype: int8
        min:
        -   -7.150110244750977
        max:
        -   6.309485912322998
        scale:
        -   0.05278273002774108
        zero_point:
        -   7
        ori_min:
        -   -7.150110244750977
        ori_max:
        -   6.309485912322998
    /model.12/cv1/act/Mul_output_0:
        qtype: asymmetric_quantized
        qmethod: layer
        dtype: int8
        min:
        -   -0.27846455574035645
        max:
        -   6.29802942276001
        scale:
        -   0.025790172464707318
        zero_point:
        -   -117
        ori_min:
        -   -0.27846455574035645
        ori_max:
        -   6.29802942276001
    /model.12/Split_output_0:
        qtype: asymmetric_quantized
        qmethod: layer
        dtype: int8
        min:
        -   -0.27846455574035645
        max:
        -   3.776731014251709
        scale:
        -   0.01590272772545908
        zero_point:
        -   -110
        ori_min:
        -   -0.27846455574035645
        ori_max:
        -   3.776731014251709
    /model.12/Split_output_1:
        qtype: asymmetric_quantized
        qmethod: layer
        dtype: int8
        min:
        -   -0.27846455574035645
        max:
        -   6.29802942276001
        scale:
        -   0.025790172464707318
        zero_point:
        -   -117
        ori_min:
        -   -0.27846455574035645
        ori_max:
        -   6.29802942276001
    /model.12/m.0/cv1/conv/Conv_output_0:
        qtype: asymmetric_quantized
        qmethod: layer
        dtype: int8
        min:
        -   -6.648184776306152
        max:
        -   4.619781970977783
        scale:
        -   0.04418810489130955
        zero_point:
        -   22
        ori_min:
        -   -6.648184776306152
        ori_max:
        -   4.619781970977783
    /model.12/m.0/cv1/act/Mul_output_0:
        qtype: asymmetric_quantized
        qmethod: layer
        dtype: int8
        min:
        -   -0.27846455574035645
        max:
        -   4.574698448181152
        scale:
        -   0.01903201178008435
        zero_point:
        -   -113
        ori_min:
        -   -0.27846455574035645
        ori_max:
        -   4.574698448181152
    /model.12/m.0/cv2/conv/Conv_output_0:
        qtype: asymmetric_quantized
        qmethod: layer
        dtype: int8
        min:
        -   -7.714739799499512
        max:
        -   6.489958763122559
        scale:
        -   0.05570470024557675
        zero_point:
        -   10
        ori_min:
        -   -7.714739799499512
        ori_max:
        -   6.489958763122559
    /model.12/m.0/cv2/act/Mul_output_0:
        qtype: asymmetric_quantized
        qmethod: layer
        dtype: int8
        min:
        -   -0.27846455574035645
        max:
        -   6.480118274688721
        scale:
        -   0.02650424639383952
        zero_point:
        -   -117
        ori_min:
        -   -0.27846455574035645
        ori_max:
        -   6.480118274688721
    /model.12/Concat_output_0:
        qtype: asymmetric_quantized
        qmethod: layer
        dtype: int8
        min:
        -   -0.27846455574035645
        max:
        -   6.480118274688721
        scale:
        -   0.02650424639383952
        zero_point:
        -   -117
        ori_min:
        -   -0.27846455574035645
        ori_max:
        -   6.480118274688721
    /model.12/cv2/conv/Conv_output_0:
        qtype: asymmetric_quantized
        qmethod: layer
        dtype: int8
        min:
        -   -10.15405559539795
        max:
        -   5.846882343292236
        scale:
        -   0.0627487762301576
        zero_point:
        -   34
        ori_min:
        -   -10.15405559539795
        ori_max:
        -   5.846882343292236
    /model.12/cv2/act/Mul_output_0:
        qtype: asymmetric_quantized
        qmethod: layer
        dtype: int8
        min:
        -   -0.27846455574035645
        max:
        -   5.830039978027344
        scale:
        -   0.02395491974026549
        zero_point:
        -   -116
        ori_min:
        -   -0.27846455574035645
        ori_max:
        -   5.830039978027344
    /model.13/Resize_output_0:
        qtype: asymmetric_quantized
        qmethod: layer
        dtype: int8
        min:
        -   -0.27846455574035645
        max:
        -   5.830039978027344
        scale:
        -   0.02395491974026549
        zero_point:
        -   -116
        ori_min:
        -   -0.27846455574035645
        ori_max:
        -   5.830039978027344
    /model.14/Concat_output_0:
        qtype: asymmetric_quantized
        qmethod: layer
        dtype: int8
        min:
        -   -0.27846455574035645
        max:
        -   6.436298847198486
        scale:
        -   0.026332405501720953
        zero_point:
        -   -117
        ori_min:
        -   -0.27846455574035645
        ori_max:
        -   6.436298847198486
    /model.15/cv1/conv/Conv_output_0:
        qtype: asymmetric_quantized
        qmethod: layer
        dtype: int8
        min:
        -   -7.755632400512695
        max:
        -   3.7325870990753174
        scale:
        -   0.04505184117485495
        zero_point:
        -   44
        ori_min:
        -   -7.755632400512695
        ori_max:
        -   3.7325870990753174
    /model.15/cv1/act/Mul_output_0:
        qtype: asymmetric_quantized
        qmethod: layer
        dtype: int8
        min:
        -   -0.27846455574035645
        max:
        -   3.645350933074951
        scale:
        -   0.015387511720844344
        zero_point:
        -   -110
        ori_min:
        -   -0.27846455574035645
        ori_max:
        -   3.645350933074951
    /model.15/Split_output_0:
        qtype: asymmetric_quantized
        qmethod: layer
        dtype: int8
        min:
        -   -0.27846455574035645
        max:
        -   3.451380491256714
        scale:
        -   0.014626843321557139
        zero_point:
        -   -109
        ori_min:
        -   -0.27846455574035645
        ori_max:
        -   3.451380491256714
    /model.15/Split_output_1:
        qtype: asymmetric_quantized
        qmethod: layer
        dtype: int8
        min:
        -   -0.27846455574035645
        max:
        -   3.645350933074951
        scale:
        -   0.015387511720844344
        zero_point:
        -   -110
        ori_min:
        -   -0.27846455574035645
        ori_max:
        -   3.645350933074951
    /model.15/m.0/cv1/conv/Conv_output_0:
        qtype: asymmetric_quantized
        qmethod: layer
        dtype: int8
        min:
        -   -5.4740376472473145
        max:
        -   3.2255167961120605
        scale:
        -   0.034115899777879904
        zero_point:
        -   32
        ori_min:
        -   -5.4740376472473145
        ori_max:
        -   3.2255167961120605
    /model.15/m.0/cv1/act/Mul_output_0:
        qtype: asymmetric_quantized
        qmethod: layer
        dtype: int8
        min:
        -   -0.27846455574035645
        max:
        -   3.102248430252075
        scale:
        -   0.013257697984284045
        zero_point:
        -   -107
        ori_min:
        -   -0.27846455574035645
        ori_max:
        -   3.102248430252075
    /model.15/m.0/cv2/conv/Conv_output_0:
        qtype: asymmetric_quantized
        qmethod: layer
        dtype: int8
        min:
        -   -6.679784297943115
        max:
        -   5.398058891296387
        scale:
        -   0.047364090938194124
        zero_point:
        -   13
        ori_min:
        -   -6.679784297943115
        ori_max:
        -   5.398058891296387
    /model.15/m.0/cv2/act/Mul_output_0:
        qtype: asymmetric_quantized
        qmethod: layer
        dtype: int8
        min:
        -   -0.27846455574035645
        max:
        -   5.373741149902344
        scale:
        -   0.022165512571147843
        zero_point:
        -   -115
        ori_min:
        -   -0.27846455574035645
        ori_max:
        -   5.373741149902344
    /model.15/Concat_output_0:
        qtype: asymmetric_quantized
        qmethod: layer
        dtype: int8
        min:
        -   -0.27846455574035645
        max:
        -   5.373741149902344
        scale:
        -   0.022165512571147843
        zero_point:
        -   -115
        ori_min:
        -   -0.27846455574035645
        ori_max:
        -   5.373741149902344
    /model.15/cv2/conv/Conv_output_0:
        qtype: asymmetric_quantized
        qmethod: layer
        dtype: int8
        min:
        -   -7.342961311340332
        max:
        -   5.380646705627441
        scale:
        -   0.0498965020273246
        zero_point:
        -   19
        ori_min:
        -   -7.342961311340332
        ori_max:
        -   5.380646705627441
    /model.15/cv2/act/Mul_output_0:
        qtype: asymmetric_quantized
        qmethod: layer
        dtype: int8
        min:
        -   -0.27846455574035645
        max:
        -   5.355983257293701
        scale:
        -   0.022095873776604148
        zero_point:
        -   -115
        ori_min:
        -   -0.27846455574035645
        ori_max:
        -   5.355983257293701
    /model.16/conv/Conv_output_0:
        qtype: asymmetric_quantized
        qmethod: layer
        dtype: int8
        min:
        -   -6.068789005279541
        max:
        -   5.2671308517456055
        scale:
        -   0.044454587674608415
        zero_point:
        -   9
        ori_min:
        -   -6.068789005279541
        ori_max:
        -   5.2671308517456055
    /model.16/act/Mul_output_0:
        qtype: asymmetric_quantized
        qmethod: layer
        dtype: int8
        min:
        -   -0.27846455574035645
        max:
        -   5.240100383758545
        scale:
        -   0.02164143113528981
        zero_point:
        -   -115
        ori_min:
        -   -0.27846455574035645
        ori_max:
        -   5.240100383758545
    /model.17/Concat_output_0:
        qtype: asymmetric_quantized
        qmethod: layer
        dtype: int8
        min:
        -   -0.27846455574035645
        max:
        -   5.830039978027344
        scale:
        -   0.02395491974026549
        zero_point:
        -   -116
        ori_min:
        -   -0.27846455574035645
        ori_max:
        -   5.830039978027344
    /model.18/cv1/conv/Conv_output_0:
        qtype: asymmetric_quantized
        qmethod: layer
        dtype: int8
        min:
        -   -7.429347038269043
        max:
        -   4.85569953918457
        scale:
        -   0.04817665324491613
        zero_point:
        -   26
        ori_min:
        -   -7.429347038269043
        ori_max:
        -   4.85569953918457
    /model.18/cv1/act/Mul_output_0:
        qtype: asymmetric_quantized
        qmethod: layer
        dtype: int8
        min:
        -   -0.27846455574035645
        max:
        -   4.818195343017578
        scale:
        -   0.019986901563756605
        zero_point:
        -   -114
        ori_min:
        -   -0.27846455574035645
        ori_max:
        -   4.818195343017578
    /model.18/Split_output_0:
        qtype: asymmetric_quantized
        qmethod: layer
        dtype: int8
        min:
        -   -0.27846455574035645
        max:
        -   4.660434246063232
        scale:
        -   0.019368230595308192
        zero_point:
        -   -114
        ori_min:
        -   -0.27846455574035645
        ori_max:
        -   4.660434246063232
    /model.18/Split_output_1:
        qtype: asymmetric_quantized
        qmethod: layer
        dtype: int8
        min:
        -   -0.27846455574035645
        max:
        -   4.818195343017578
        scale:
        -   0.019986901563756605
        zero_point:
        -   -114
        ori_min:
        -   -0.27846455574035645
        ori_max:
        -   4.818195343017578
    /model.18/m.0/cv1/conv/Conv_output_0:
        qtype: asymmetric_quantized
        qmethod: layer
        dtype: int8
        min:
        -   -6.9476518630981445
        max:
        -   4.433055400848389
        scale:
        -   0.04463022456449621
        zero_point:
        -   28
        ori_min:
        -   -6.9476518630981445
        ori_max:
        -   4.433055400848389
    /model.18/m.0/cv1/act/Mul_output_0:
        qtype: asymmetric_quantized
        qmethod: layer
        dtype: int8
        min:
        -   -0.27846455574035645
        max:
        -   4.381017208099365
        scale:
        -   0.01827247750525381
        zero_point:
        -   -113
        ori_min:
        -   -0.27846455574035645
        ori_max:
        -   4.381017208099365
    /model.18/m.0/cv2/conv/Conv_output_0:
        qtype: asymmetric_quantized
        qmethod: layer
        dtype: int8
        min:
        -   -9.566575050354004
        max:
        -   9.438709259033203
        scale:
        -   0.07453052670347925
        zero_point:
        -   0
        ori_min:
        -   -9.566575050354004
        ori_max:
        -   9.438709259033203
    /model.18/m.0/cv2/act/Mul_output_0:
        qtype: asymmetric_quantized
        qmethod: layer
        dtype: int8
        min:
        -   -0.27846455574035645
        max:
        -   9.437957763671875
        scale:
        -   0.038103616938871494
        zero_point:
        -   -121
        ori_min:
        -   -0.27846455574035645
        ori_max:
        -   9.437957763671875
    /model.18/Concat_output_0:
        qtype: asymmetric_quantized
        qmethod: layer
        dtype: int8
        min:
        -   -0.27846455574035645
        max:
        -   9.437957763671875
        scale:
        -   0.038103616938871494
        zero_point:
        -   -121
        ori_min:
        -   -0.27846455574035645
        ori_max:
        -   9.437957763671875
    /model.18/cv2/conv/Conv_output_0:
        qtype: asymmetric_quantized
        qmethod: layer
        dtype: int8
        min:
        -   -10.661945343017578
        max:
        -   7.131545066833496
        scale:
        -   0.06977839376412186
        zero_point:
        -   25
        ori_min:
        -   -10.661945343017578
        ori_max:
        -   7.131545066833496
    /model.18/cv2/act/Mul_output_0:
        qtype: asymmetric_quantized
        qmethod: layer
        dtype: int8
        min:
        -   -0.27846455574035645
        max:
        -   7.125847816467285
        scale:
        -   0.029036519106696634
        zero_point:
        -   -118
        ori_min:
        -   -0.27846455574035645
        ori_max:
        -   7.125847816467285
    /model.19/conv/Conv_output_0:
        qtype: asymmetric_quantized
        qmethod: layer
        dtype: int8
        min:
        -   -8.199483871459961
        max:
        -   6.823916435241699
        scale:
        -   0.058915295320398665
        zero_point:
        -   11
        ori_min:
        -   -8.199483871459961
        ori_max:
        -   6.823916435241699
    /model.19/act/Mul_output_0:
        qtype: asymmetric_quantized
        qmethod: layer
        dtype: int8
        min:
        -   -0.27846455574035645
        max:
        -   6.816504001617432
        scale:
        -   0.027823406107285443
        zero_point:
        -   -118
        ori_min:
        -   -0.27846455574035645
        ori_max:
        -   6.816504001617432
    /model.20/Concat_output_0:
        qtype: asymmetric_quantized
        qmethod: layer
        dtype: int8
        min:
        -   -0.27846455574035645
        max:
        -   6.816504001617432
        scale:
        -   0.027823406107285443
        zero_point:
        -   -118
        ori_min:
        -   -0.27846455574035645
        ori_max:
        -   6.816504001617432
    /model.21/cv1/conv/Conv_output_0:
        qtype: asymmetric_quantized
        qmethod: layer
        dtype: int8
        min:
        -   -7.423511505126953
        max:
        -   7.808684825897217
        scale:
        -   0.059734103258918314
        zero_point:
        -   -4
        ori_min:
        -   -7.423511505126953
        ori_max:
        -   7.808684825897217
    /model.21/cv1/act/Mul_output_0:
        qtype: asymmetric_quantized
        qmethod: layer
        dtype: int8
        min:
        -   -0.27846455574035645
        max:
        -   7.805514812469482
        scale:
        -   0.031701879875332704
        zero_point:
        -   -119
        ori_min:
        -   -0.27846455574035645
        ori_max:
        -   7.805514812469482
    /model.21/Split_output_0:
        qtype: asymmetric_quantized
        qmethod: layer
        dtype: int8
        min:
        -   -0.27846455574035645
        max:
        -   7.805514812469482
        scale:
        -   0.031701879875332704
        zero_point:
        -   -119
        ori_min:
        -   -0.27846455574035645
        ori_max:
        -   7.805514812469482
    /model.21/Split_output_1:
        qtype: asymmetric_quantized
        qmethod: layer
        dtype: int8
        min:
        -   -0.27846455574035645
        max:
        -   6.778769016265869
        scale:
        -   0.027675425772573432
        zero_point:
        -   -118
        ori_min:
        -   -0.27846455574035645
        ori_max:
        -   6.778769016265869
    /model.21/m.0/cv1/conv/Conv_output_0:
        qtype: asymmetric_quantized
        qmethod: layer
        dtype: int8
        min:
        -   -9.84682846069336
        max:
        -   6.192570209503174
        scale:
        -   0.0628996026282217
        zero_point:
        -   29
        ori_min:
        -   -9.84682846069336
        ori_max:
        -   6.192570209503174
    /model.21/m.0/cv1/act/Mul_output_0:
        qtype: asymmetric_quantized
        qmethod: layer
        dtype: int8
        min:
        -   -0.27846455574035645
        max:
        -   6.179934978485107
        scale:
        -   0.025327056996962603
        zero_point:
        -   -117
        ori_min:
        -   -0.27846455574035645
        ori_max:
        -   6.179934978485107
    /model.21/m.0/cv2/conv/Conv_output_0:
        qtype: asymmetric_quantized
        qmethod: layer
        dtype: int8
        min:
        -   -12.438131332397461
        max:
        -   13.087982177734375
        scale:
        -   0.10010240592208564
        zero_point:
        -   -4
        ori_min:
        -   -12.438131332397461
        ori_max:
        -   13.087982177734375
    /model.21/m.0/cv2/act/Mul_output_0:
        qtype: asymmetric_quantized
        qmethod: layer
        dtype: int8
        min:
        -   -0.27846455574035645
        max:
        -   13.087955474853516
        scale:
        -   0.0524173334533093
        zero_point:
        -   -123
        ori_min:
        -   -0.27846455574035645
        ori_max:
        -   13.087955474853516
    /model.21/Concat_output_0:
        qtype: asymmetric_quantized
        qmethod: layer
        dtype: int8
        min:
        -   -0.27846455574035645
        max:
        -   13.087955474853516
        scale:
        -   0.0524173334533093
        zero_point:
        -   -123
        ori_min:
        -   -0.27846455574035645
        ori_max:
        -   13.087955474853516
    /model.21/cv2/conv/Conv_output_0:
        qtype: asymmetric_quantized
        qmethod: layer
        dtype: int8
        min:
        -   -23.8880672454834
        max:
        -   11.248241424560547
        scale:
        -   0.13778944576487823
        zero_point:
        -   45
        ori_min:
        -   -23.8880672454834
        ori_max:
        -   11.248241424560547
    /model.21/cv2/act/Mul_output_0:
        qtype: asymmetric_quantized
        qmethod: layer
        dtype: int8
        min:
        -   -0.27846455574035645
        max:
        -   11.248095512390137
        scale:
        -   0.04520219634560978
        zero_point:
        -   -122
        ori_min:
        -   -0.27846455574035645
        ori_max:
        -   11.248095512390137
    /model.22/cv2.2/cv2.2.0/conv/Conv_output_0:
        qtype: asymmetric_quantized
        qmethod: layer
        dtype: int8
        min:
        -   -17.25731086730957
        max:
        -   10.687399864196777
        scale:
        -   0.10958710090786802
        zero_point:
        -   29
        ori_min:
        -   -17.25731086730957
        ori_max:
        -   10.687399864196777
    /model.22/cv2.2/cv2.2.0/act/Mul_output_0:
        qtype: asymmetric_quantized
        qmethod: layer
        dtype: int8
        min:
        -   -0.27846452593803406
        max:
        -   10.687155723571777
        scale:
        -   0.04300243235101887
        zero_point:
        -   -122
        ori_min:
        -   -0.27846452593803406
        ori_max:
        -   10.687155723571777
    /model.22/cv2.2/cv2.2.1/conv/Conv_output_0:
        qtype: asymmetric_quantized
        qmethod: layer
        dtype: int8
        min:
        -   -17.036497116088867
        max:
        -   23.688581466674805
        scale:
        -   0.15970619052064186
        zero_point:
        -   -21
        ori_min:
        -   -17.036497116088867
        ori_max:
        -   23.688581466674805
    /model.22/cv2.2/cv2.2.1/act/Mul_output_0:
        qtype: asymmetric_quantized
        qmethod: layer
        dtype: int8
        min:
        -   -0.27846455574035645
        max:
        -   23.688581466674805
        scale:
        -   0.0939884157741771
        zero_point:
        -   -125
        ori_min:
        -   -0.27846455574035645
        ori_max:
        -   23.688581466674805
    /model.22/cv2.2/cv2.2.2/Conv_output_0:
        qtype: asymmetric_quantized
        qmethod: layer
        dtype: int8
        min:
        -   -6.604102611541748
        max:
        -   12.347363471984863
        scale:
        -   0.07431947483735926
        zero_point:
        -   -39
        ori_min:
        -   -6.604102611541748
        ori_max:
        -   12.347363471984863
    /model.22/cv3.2/cv3.2.0/conv/Conv_output_0:
        qtype: asymmetric_quantized
        qmethod: layer
        dtype: int8
        min:
        -   -18.606586456298828
        max:
        -   9.091161727905273
        scale:
        -   0.10861862033021216
        zero_point:
        -   43
        ori_min:
        -   -18.606586456298828
        ori_max:
        -   9.091161727905273
    /model.22/cv3.2/cv3.2.0/act/Mul_output_0:
        qtype: asymmetric_quantized
        qmethod: layer
        dtype: int8
        min:
        -   -0.27846455574035645
        max:
        -   9.090137481689453
        scale:
        -   0.03673961583305808
        zero_point:
        -   -120
        ori_min:
        -   -0.27846455574035645
        ori_max:
        -   9.090137481689453
    /model.22/cv3.2/cv3.2.1/conv/Conv_output_0:
        qtype: asymmetric_quantized
        qmethod: layer
        dtype: int8
        min:
        -   -79.40194702148438
        max:
        -   83.54481506347656
        scale:
        -   0.6390069101371018
        zero_point:
        -   -4
        ori_min:
        -   -79.40194702148438
        ori_max:
        -   83.54481506347656
    /model.22/cv3.2/cv3.2.1/act/Mul_output_0:
        qtype: asymmetric_quantized
        qmethod: layer
        dtype: int8
        min:
        -   -0.27846455574035645
        max:
        -   83.54481506347656
        scale:
        -   0.3287187436047722
        zero_point:
        -   -127
        ori_min:
        -   -0.27846455574035645
        ori_max:
        -   83.54481506347656
    /model.22/cv3.2/cv3.2.2/Conv_output_0:
        qtype: asymmetric_quantized
        qmethod: layer
        dtype: int8
        min:
        -   -7.0
        max:
        -   1.9954628944396973
        scale:
        -   0.03527632507623411
        zero_point:
        -   70
        ori_min:
        -   -50.02763366699219
        ori_max:
        -   1.9954628944396973
    /model.22/Concat_2_output_0:
        qtype: asymmetric_quantized
        qmethod: layer
        dtype: int8
        min:
        -   -7.0
        max:
        -   12.347363471984863
        scale:
        -   0.07587201361562691
        zero_point:
        -   -36
        ori_min:
        -   -50.02763366699219
        ori_max:
        -   12.347363471984863
    /model.22/Reshape_2_output_0_shape4_/model.22/Concat_3:
        qtype: asymmetric_quantized
        qmethod: layer
        dtype: int8
        min:
        -   -7.0
        max:
        -   12.347363471984863
        scale:
        -   0.07587201361562691
        zero_point:
        -   -36
        ori_min:
        -   -50.02763366699219
        ori_max:
        -   12.347363471984863
    /model.22/cv2.1/cv2.1.0/conv/Conv_output_0:
        qtype: asymmetric_quantized
        qmethod: layer
        dtype: int8
        min:
        -   -14.191535949707031
        max:
        -   8.108283042907715
        scale:
        -   0.08745027055927351
        zero_point:
        -   34
        ori_min:
        -   -14.191535949707031
        ori_max:
        -   8.108283042907715
    /model.22/cv2.1/cv2.1.0/act/Mul_output_0:
        qtype: asymmetric_quantized
        qmethod: layer
        dtype: int8
        min:
        -   -0.27846455574035645
        max:
        -   8.105843544006348
        scale:
        -   0.03287963960684982
        zero_point:
        -   -120
        ori_min:
        -   -0.27846455574035645
        ori_max:
        -   8.105843544006348
    /model.22/cv2.1/cv2.1.1/conv/Conv_output_0:
        qtype: asymmetric_quantized
        qmethod: layer
        dtype: int8
        min:
        -   -22.759593963623047
        max:
        -   47.42009735107422
        scale:
        -   0.27521447574391084
        zero_point:
        -   -45
        ori_min:
        -   -22.759593963623047
        ori_max:
        -   47.42009735107422
    /model.22/cv2.1/cv2.1.1/act/Mul_output_0:
        qtype: asymmetric_quantized
        qmethod: layer
        dtype: int8
        min:
        -   -0.27846455574035645
        max:
        -   47.42009735107422
        scale:
        -   0.18705318394829246
        zero_point:
        -   -127
        ori_min:
        -   -0.27846455574035645
        ori_max:
        -   47.42009735107422
    /model.22/cv2.1/cv2.1.2/Conv_output_0:
        qtype: asymmetric_quantized
        qmethod: layer
        dtype: int8
        min:
        -   -5.282049179077148
        max:
        -   12.69135856628418
        scale:
        -   0.07048395194259344
        zero_point:
        -   -53
        ori_min:
        -   -5.282049179077148
        ori_max:
        -   12.69135856628418
    /model.22/cv3.1/cv3.1.0/conv/Conv_output_0:
        qtype: asymmetric_quantized
        qmethod: layer
        dtype: int8
        min:
        -   -8.913825035095215
        max:
        -   6.290846824645996
        scale:
        -   0.059626164155847886
        zero_point:
        -   21
        ori_min:
        -   -8.913825035095215
        ori_max:
        -   6.290846824645996
    /model.22/cv3.1/cv3.1.0/act/Mul_output_0:
        qtype: asymmetric_quantized
        qmethod: layer
        dtype: int8
        min:
        -   -0.27846455574035645
        max:
        -   6.279210090637207
        scale:
        -   0.025716371162264953
        zero_point:
        -   -117
        ori_min:
        -   -0.27846455574035645
        ori_max:
        -   6.279210090637207
    /model.22/cv3.1/cv3.1.1/conv/Conv_output_0:
        qtype: asymmetric_quantized
        qmethod: layer
        dtype: int8
        min:
        -   -40.0558967590332
        max:
        -   60.835453033447266
        scale:
        -   0.3956523521273744
        zero_point:
        -   -27
        ori_min:
        -   -40.0558967590332
        ori_max:
        -   60.835453033447266
    /model.22/cv3.1/cv3.1.1/act/Mul_output_0:
        qtype: asymmetric_quantized
        qmethod: layer
        dtype: int8
        min:
        -   -0.27846455574035645
        max:
        -   60.835453033447266
        scale:
        -   0.23966242191838283
        zero_point:
        -   -127
        ori_min:
        -   -0.27846455574035645
        ori_max:
        -   60.835453033447266
    /model.22/cv3.1/cv3.1.2/Conv_output_0:
        qtype: asymmetric_quantized
        qmethod: layer
        dtype: int8
        min:
        -   -7.0
        max:
        -   0.0
        scale:
        -   0.027450980392156862
        zero_point:
        -   127
        ori_min:
        -   -27.468767166137695
        ori_max:
        -   -0.7159404754638672
    /model.22/Concat_1_output_0:
        qtype: asymmetric_quantized
        qmethod: layer
        dtype: int8
        min:
        -   -7.0
        max:
        -   12.69135856628418
        scale:
        -   0.07722101398542816
        zero_point:
        -   -37
        ori_min:
        -   -27.468767166137695
        ori_max:
        -   12.69135856628418
    /model.22/Reshape_1_output_0_shape4_/model.22/Concat_3:
        qtype: asymmetric_quantized
        qmethod: layer
        dtype: int8
        min:
        -   -7.0
        max:
        -   12.69135856628418
        scale:
        -   0.07722101398542816
        zero_point:
        -   -37
        ori_min:
        -   -27.468767166137695
        ori_max:
        -   12.69135856628418
    /model.22/cv2.0/cv2.0.0/conv/Conv_output_0:
        qtype: asymmetric_quantized
        qmethod: layer
        dtype: int8
        min:
        -   -11.185040473937988
        max:
        -   4.961999893188477
        scale:
        -   0.0633217269299077
        zero_point:
        -   49
        ori_min:
        -   -11.185040473937988
        ori_max:
        -   4.961999893188477
    /model.22/cv2.0/cv2.0.0/act/Mul_output_0:
        qtype: asymmetric_quantized
        qmethod: layer
        dtype: int8
        min:
        -   -0.27846455574035645
        max:
        -   4.9275126457214355
        scale:
        -   0.020415596868477617
        zero_point:
        -   -114
        ori_min:
        -   -0.27846455574035645
        ori_max:
        -   4.9275126457214355
    /model.22/cv2.0/cv2.0.1/conv/Conv_output_0:
        qtype: asymmetric_quantized
        qmethod: layer
        dtype: int8
        min:
        -   -26.673397064208984
        max:
        -   28.750728607177734
        scale:
        -   0.21734951243681067
        zero_point:
        -   -5
        ori_min:
        -   -26.673397064208984
        ori_max:
        -   28.750728607177734
    /model.22/cv2.0/cv2.0.1/act/Mul_output_0:
        qtype: asymmetric_quantized
        qmethod: layer
        dtype: int8
        min:
        -   -0.27846455574035645
        max:
        -   28.750728607177734
        scale:
        -   0.11383997318791408
        zero_point:
        -   -126
        ori_min:
        -   -0.27846455574035645
        ori_max:
        -   28.750728607177734
    /model.22/cv2.0/cv2.0.2/Conv_output_0:
        qtype: asymmetric_quantized
        qmethod: layer
        dtype: int8
        min:
        -   -4.998912811279297
        max:
        -   19.60284423828125
        scale:
        -   0.09647747862572763
        zero_point:
        -   -76
        ori_min:
        -   -4.998912811279297
        ori_max:
        -   19.60284423828125
    /model.22/cv3.0/cv3.0.0/conv/Conv_output_0:
        qtype: asymmetric_quantized
        qmethod: layer
        dtype: int8
        min:
        -   -8.268440246582031
        max:
        -   5.233311653137207
        scale:
        -   0.05294804666556564
        zero_point:
        -   28
        ori_min:
        -   -8.268440246582031
        ori_max:
        -   5.233311653137207
    /model.22/cv3.0/cv3.0.0/act/Mul_output_0:
        qtype: asymmetric_quantized
        qmethod: layer
        dtype: int8
        min:
        -   -0.27846458554267883
        max:
        -   5.205535888671875
        scale:
        -   0.021505884212606092
        zero_point:
        -   -115
        ori_min:
        -   -0.27846458554267883
        ori_max:
        -   5.205535888671875
    /model.22/cv3.0/cv3.0.1/conv/Conv_output_0:
        qtype: asymmetric_quantized
        qmethod: layer
        dtype: int8
        min:
        -   -65.31714630126953
        max:
        -   32.998329162597656
        scale:
        -   0.3855508841720282
        zero_point:
        -   41
        ori_min:
        -   -65.31714630126953
        ori_max:
        -   32.998329162597656
    /model.22/cv3.0/cv3.0.1/act/Mul_output_0:
        qtype: asymmetric_quantized
        qmethod: layer
        dtype: int8
        min:
        -   -0.27846455574035645
        max:
        -   32.998329162597656
        scale:
        -   0.1304972302679922
        zero_point:
        -   -126
        ori_min:
        -   -0.27846455574035645
        ori_max:
        -   32.998329162597656
    /model.22/cv3.0/cv3.0.2/Conv_output_0:
        qtype: asymmetric_quantized
        qmethod: layer
        dtype: int8
        min:
        -   -7.0
        max:
        -   0.0
        scale:
        -   0.027450980392156862
        zero_point:
        -   127
        ori_min:
        -   -24.20123863220215
        ori_max:
        -   -2.263357639312744
    /model.22/Concat_output_0:
        qtype: asymmetric_quantized
        qmethod: layer
        dtype: int8
        min:
        -   -7.0
        max:
        -   19.60284423828125
        scale:
        -   0.10432487936580882
        zero_point:
        -   -61
        ori_min:
        -   -24.20123863220215
        ori_max:
        -   19.60284423828125
    /model.22/Reshape_output_0_shape4_/model.22/Concat_3:
        qtype: asymmetric_quantized
        qmethod: layer
        dtype: int8
        min:
        -   -7.0
        max:
        -   19.60284423828125
        scale:
        -   0.10432487936580882
        zero_point:
        -   -61
        ori_min:
        -   -24.20123863220215
        ori_max:
        -   19.60284423828125
    /model.22/Concat_3_output_0:
        qtype: asymmetric_quantized
        qmethod: layer
        dtype: int8
        min:
        -   -7.0
        max:
        -   19.60284423828125
        scale:
        -   0.10432487936580882
        zero_point:
        -   -61
        ori_min:
        -   -50.02763366699219
        ori_max:
        -   19.60284423828125
    /model.22/Split_output_0_shape4:
        qtype: asymmetric_quantized
        qmethod: layer
        dtype: int8
        min:
        -   -6.604102611541748
        max:
        -   19.60284423828125
        scale:
        -   0.10277234058754117
        zero_point:
        -   -64
        ori_min:
        -   -6.604102611541748
        ori_max:
        -   19.60284423828125
    /model.22/Split_output_1:
        qtype: asymmetric_quantized
        qmethod: layer
        dtype: int8
        min:
        -   -7.0
        max:
        -   1.9954628944396973
        scale:
        -   0.03527632507623411
        zero_point:
        -   70
        ori_min:
        -   -50.02763366699219
        ori_max:
        -   1.9954628944396973
    /model.22/dfl/Reshape_output_0:
        qtype: asymmetric_quantized
        qmethod: layer
        dtype: int8
        min:
        -   -6.604102611541748
        max:
        -   19.60284423828125
        scale:
        -   0.10277234058754117
        zero_point:
        -   -64
        ori_min:
        -   -6.604102611541748
        ori_max:
        -   19.60284423828125
    /model.22/dfl/Transpose_output_0:
        qtype: asymmetric_quantized
        qmethod: layer
        dtype: int8
        min:
        -   -6.604102611541748
        max:
        -   19.60284423828125
        scale:
        -   0.10277234058754117
        zero_point:
        -   -64
        ori_min:
        -   -6.604102611541748
        ori_max:
        -   19.60284423828125
    /model.22/dfl/Softmax_output_0:
        qtype: asymmetric_quantized
        qmethod: layer
        dtype: int8
        min:
        -   0.0
        max:
        -   0.9758563041687012
        scale:
        -   0.00382688746732824
        zero_point:
        -   -128
        ori_min:
        -   2.2681563224824508e-11
        ori_max:
        -   0.9758563041687012
    /model.22/dfl/conv/Conv_output_0:
        qtype: asymmetric_quantized
        qmethod: layer
        dtype: int8
        min:
        -   0.0
        max:
        -   13.339709281921387
        scale:
        -   0.052312585419299555
        zero_point:
        -   -128
        ori_min:
        -   0.030604450032114983
        ori_max:
        -   13.339709281921387
    /model.22/dfl/Reshape_1_output_0_shape4_/model.22/Slice_2split_conv_/model.22/Slice_2split:
        qtype: asymmetric_quantized
        qmethod: layer
        dtype: int8
        min:
        -   0.0
        max:
        -   13.339709281921387
        scale:
        -   0.052312585419299555
        zero_point:
        -   -128
        ori_min:
        -   0.0
        ori_max:
        -   13.339709281921387
    /model.22/Slice_output_0_shape4_before_conv:
        qtype: asymmetric_quantized
        qmethod: layer
        dtype: int8
        min:
        -   0.0
        max:
        -   13.339709281921387
        scale:
        -   0.052312585419299555
        zero_point:
        -   -128
        ori_min:
        -   0.0
        ori_max:
        -   13.339709281921387
    /model.22/Slice_1_output_0:
        qtype: asymmetric_quantized
        qmethod: layer
        dtype: int8
        min:
        -   0.0
        max:
        -   13.232966423034668
        scale:
        -   0.05189398597268497
        zero_point:
        -   -128
        ori_min:
        -   0.030604450032114983
        ori_max:
        -   13.232966423034668
    /model.22/Slice_output_0:
        qtype: asymmetric_quantized
        qmethod: layer
        dtype: int8
        min:
        -   0.0
        max:
        -   13.339709281921387
        scale:
        -   0.052312585419299555
        zero_point:
        -   -128
        ori_min:
        -   0.056345805525779724
        ori_max:
        -   13.339709281921387
    /model.22/Sub_output_0:
        qtype: asymmetric_quantized
        qmethod: layer
        dtype: int8
        min:
        -   -1.196096420288086
        max:
        -   79.34721374511719
        scale:
        -   0.315856118295707
        zero_point:
        -   -124
        ori_min:
        -   -1.196096420288086
        ori_max:
        -   79.34721374511719
    /model.22/Add_1_output_0:
        qtype: asymmetric_quantized
        qmethod: layer
        dtype: int8
        min:
        -   0.0
        max:
        -   80.43119049072266
        scale:
        -   0.31541643329695157
        zero_point:
        -   -128
        ori_min:
        -   0.7615748643875122
        ori_max:
        -   80.43119049072266
    /model.22/Sub_1_output_0:
        qtype: asymmetric_quantized
        qmethod: layer
        dtype: int8
        min:
        -   0.0
        max:
        -   25.575298309326172
        scale:
        -   0.10029528748755362
        zero_point:
        -   -128
        ori_min:
        -   0.5287857055664062
        ori_max:
        -   25.575298309326172
    /model.22/Add_2_output_0:
        qtype: asymmetric_quantized
        qmethod: layer
        dtype: int8
        min:
        -   0.0
        max:
        -   159.31918334960938
        scale:
        -   0.6247811111749387
        zero_point:
        -   -128
        ori_min:
        -   0.7661072611808777
        ori_max:
        -   159.31918334960938
    /model.22/Div_1_output_0_conv_/model.22/Concat_4:
        qtype: asymmetric_quantized
        qmethod: layer
        dtype: int8
        min:
        -   0.0
        max:
        -   79.65959167480469
        scale:
        -   0.31239055558746937
        zero_point:
        -   -128
        ori_min:
        -   0.0
        ori_max:
        -   79.65959167480469
    /model.22/Concat_4_output_0_shape4_/model.22/Mul_2_before_conv:
        qtype: asymmetric_quantized
        qmethod: layer
        dtype: int8
        min:
        -   0.0
        max:
        -   79.65959167480469
        scale:
        -   0.31239055558746937
        zero_point:
        -   -128
        ori_min:
        -   0.0
        ori_max:
        -   79.65959167480469
    /model.22/Concat_4_output_0_shape4_/model.22/Mul_2:
        qtype: asymmetric_quantized
        qmethod: layer
        dtype: int8
        min:
        -   0.0
        max:
        -   79.65959167480469
        scale:
        -   0.31239055558746937
        zero_point:
        -   -128
        ori_min:
        -   0.38305363059043884
        ori_max:
        -   79.65959167480469
    /model.22/Mul_2_output_0:
        qtype: asymmetric_quantized
        qmethod: layer
        dtype: int8
        min:
        -   0.0
        max:
        -   637.2767333984375
        scale:
        -   2.499124444699755
        zero_point:
        -   -128
        ori_min:
        -   3.0644290447235107
        ori_max:
        -   637.2767333984375
    /model.22/Concat_5_swap_concat_reshape_i0_out:
        qtype: asymmetric_quantized
        qmethod: layer
        dtype: int8
        min:
        -   0.0
        max:
        -   637.2767333984375
        scale:
        -   2.499124444699755
        zero_point:
        -   -128
        ori_min:
        -   3.0644290447235107
        ori_max:
        -   637.2767333984375
    /model.22/Sigmoid_output_0:
        qtype: asymmetric_quantized
        qmethod: layer
        dtype: int8
        min:
        -   0.0
        max:
        -   0.8803199529647827
        scale:
        -   0.0034522351096658147
        zero_point:
        -   -128
        ori_min:
        -   0.0
        ori_max:
        -   0.8803199529647827
    /model.22/Concat_5_swap_concat_reshape_i1_out:
        qtype: asymmetric_quantized
        qmethod: layer
        dtype: int8
        min:
        -   0.0
        max:
        -   0.8803199529647827
        scale:
        -   0.0034522351096658147
        zero_point:
        -   -128
        ori_min:
        -   0.0
        ori_max:
        -   0.8803199529647827
    output0_shape4:
        qtype: asymmetric_quantized
        qmethod: layer
        dtype: int8
        min:
        -   0.0
        max:
        -   637.2767333984375
        scale:
        -   2.499124444699755
        zero_point:
        -   -128
        ori_min:
        -   0.0
        ori_max:
        -   637.2767333984375
    output0:
        qtype: asymmetric_quantized
        qmethod: layer
        dtype: float32
        min:
        -   0.0
        max:
        -   637.2767333984375
        scale: []
        zero_point: []
        ori_min:
        -   0.0
        ori_max:
        -   637.2767333984375
    /model.22/Constant_9_output_0:
        qtype: symmetric_quantized
        qmethod: layer
        dtype: int32
        min:
        -   -79.5
        max:
        -   79.5
        scale:
        -   3.702007234096527e-08
        zero_point:
        -   0
        ori_min:
        -   0.5
        ori_max:
        -   79.5
    /model.22/Constant_10_output_0:
        qtype: symmetric_quantized
        qmethod: layer
        dtype: int32
        min:
        -   -79.5
        max:
        -   79.5
        scale:
        -   3.702007234096527e-08
        zero_point:
        -   0
        ori_min:
        -   0.5
        ori_max:
        -   79.5
    /model.22/Constant_12_output_0:
        qtype: asymmetric_quantized
        qmethod: layer
        dtype: int16
        min:
        -   0.0
        max:
        -   32.0
        scale:
        -   0.0004882887006942855
        zero_point:
        -   -32768
        ori_min:
        -   8.0
        ori_max:
        -   32.0
    images_int8:
        qtype: asymmetric_quantized
        qmethod: layer
        dtype: int8
        min:
        -   0.0
        max:
        -   1.0
        scale:
        -   0.00392156862745098
        zero_point:
        -   -128
        ori_min:
        -   0.0
        ori_max:
        -   1.0
    output0_int8:
        qtype: asymmetric_quantized
        qmethod: layer
        dtype: int8
        min:
        -   0.0
        max:
        -   637.2767333984375
        scale:
        -   2.499124444699755
        zero_point:
        -   -128
        ori_min:
        -   0.0
        ori_max:
        -   637.2767333984375
